#pragma once
#ifndef MODELAPNEADETECT_H
#define MODELAPNEADETECT_H


unsigned int modelApneaDetect_len = 7512;
unsigned char modelApneaDetect[] = {
 0x1c, 0x00, 0x00, 0x00, 0x54, 0x46, 0x4c, 0x33, 0x14, 0x00, 0x20, 0x00,
  0x1c, 0x00, 0x18, 0x00, 0x14, 0x00, 0x10, 0x00, 0x0c, 0x00, 0x00, 0x00,
  0x08, 0x00, 0x04, 0x00, 0x14, 0x00, 0x00, 0x00, 0x1c, 0x00, 0x00, 0x00,
  0x88, 0x00, 0x00, 0x00, 0xe0, 0x00, 0x00, 0x00, 0x8c, 0x11, 0x00, 0x00,
  0x9c, 0x11, 0x00, 0x00, 0xc4, 0x1c, 0x00, 0x00, 0x03, 0x00, 0x00, 0x00,
  0x01, 0x00, 0x00, 0x00, 0x04, 0x00, 0x00, 0x00, 0xee, 0xec, 0xff, 0xff,
  0x0c, 0x00, 0x00, 0x00, 0x1c, 0x00, 0x00, 0x00, 0x38, 0x00, 0x00, 0x00,
  0x0f, 0x00, 0x00, 0x00, 0x73, 0x65, 0x72, 0x76, 0x69, 0x6e, 0x67, 0x5f,
  0x64, 0x65, 0x66, 0x61, 0x75, 0x6c, 0x74, 0x00, 0x01, 0x00, 0x00, 0x00,
  0x04, 0x00, 0x00, 0x00, 0x94, 0xff, 0xff, 0xff, 0x14, 0x00, 0x00, 0x00,
  0x04, 0x00, 0x00, 0x00, 0x07, 0x00, 0x00, 0x00, 0x64, 0x65, 0x6e, 0x73,
  0x65, 0x5f, 0x32, 0x00, 0x01, 0x00, 0x00, 0x00, 0x04, 0x00, 0x00, 0x00,
  0x1a, 0xef, 0xff, 0xff, 0x04, 0x00, 0x00, 0x00, 0x0c, 0x00, 0x00, 0x00,
  0x63, 0x6f, 0x6e, 0x76, 0x31, 0x64, 0x5f, 0x69, 0x6e, 0x70, 0x75, 0x74,
  0x00, 0x00, 0x00, 0x00, 0x02, 0x00, 0x00, 0x00, 0x34, 0x00, 0x00, 0x00,
  0x04, 0x00, 0x00, 0x00, 0xdc, 0xff, 0xff, 0xff, 0x17, 0x00, 0x00, 0x00,
  0x04, 0x00, 0x00, 0x00, 0x13, 0x00, 0x00, 0x00, 0x43, 0x4f, 0x4e, 0x56,
  0x45, 0x52, 0x53, 0x49, 0x4f, 0x4e, 0x5f, 0x4d, 0x45, 0x54, 0x41, 0x44,
  0x41, 0x54, 0x41, 0x00, 0x08, 0x00, 0x0c, 0x00, 0x08, 0x00, 0x04, 0x00,
  0x08, 0x00, 0x00, 0x00, 0x16, 0x00, 0x00, 0x00, 0x04, 0x00, 0x00, 0x00,
  0x13, 0x00, 0x00, 0x00, 0x6d, 0x69, 0x6e, 0x5f, 0x72, 0x75, 0x6e, 0x74,
  0x69, 0x6d, 0x65, 0x5f, 0x76, 0x65, 0x72, 0x73, 0x69, 0x6f, 0x6e, 0x00,
  0x18, 0x00, 0x00, 0x00, 0xa8, 0x10, 0x00, 0x00, 0xa0, 0x10, 0x00, 0x00,
  0x68, 0x10, 0x00, 0x00, 0x28, 0x10, 0x00, 0x00, 0xd8, 0x0f, 0x00, 0x00,
  0xc4, 0x0f, 0x00, 0x00, 0x74, 0x0f, 0x00, 0x00, 0x5c, 0x0f, 0x00, 0x00,
  0x48, 0x0f, 0x00, 0x00, 0x38, 0x05, 0x00, 0x00, 0x28, 0x01, 0x00, 0x00,
  0xd8, 0x00, 0x00, 0x00, 0xd0, 0x00, 0x00, 0x00, 0xc8, 0x00, 0x00, 0x00,
  0xc0, 0x00, 0x00, 0x00, 0xb8, 0x00, 0x00, 0x00, 0xb0, 0x00, 0x00, 0x00,
  0xa8, 0x00, 0x00, 0x00, 0xa0, 0x00, 0x00, 0x00, 0x98, 0x00, 0x00, 0x00,
  0x90, 0x00, 0x00, 0x00, 0x88, 0x00, 0x00, 0x00, 0x68, 0x00, 0x00, 0x00,
  0x04, 0x00, 0x00, 0x00, 0xf6, 0xef, 0xff, 0xff, 0x04, 0x00, 0x00, 0x00,
  0x54, 0x00, 0x00, 0x00, 0x0c, 0x00, 0x00, 0x00, 0x08, 0x00, 0x0e, 0x00,
  0x08, 0x00, 0x04, 0x00, 0x08, 0x00, 0x00, 0x00, 0x10, 0x00, 0x00, 0x00,
  0x24, 0x00, 0x00, 0x00, 0x00, 0x00, 0x06, 0x00, 0x08, 0x00, 0x04, 0x00,
  0x06, 0x00, 0x00, 0x00, 0x04, 0x00, 0x00, 0x00, 0x00, 0x00, 0x00, 0x00,
  0x00, 0x00, 0x0a, 0x00, 0x10, 0x00, 0x0c, 0x00, 0x08, 0x00, 0x04, 0x00,
  0x0a, 0x00, 0x00, 0x00, 0x02, 0x00, 0x00, 0x00, 0x02, 0x00, 0x00, 0x00,
  0x04, 0x00, 0x00, 0x00, 0x06, 0x00, 0x00, 0x00, 0x32, 0x2e, 0x31, 0x32,
  0x2e, 0x30, 0x00, 0x00, 0x56, 0xf0, 0xff, 0xff, 0x04, 0x00, 0x00, 0x00,
  0x10, 0x00, 0x00, 0x00, 0x31, 0x2e, 0x31, 0x34, 0x2e, 0x30, 0x00, 0x00,
  0x00, 0x00, 0x00, 0x00, 0x00, 0x00, 0x00, 0x00, 0x2c, 0xe5, 0xff, 0xff,
  0x30, 0xe5, 0xff, 0xff, 0x34, 0xe5, 0xff, 0xff, 0x38, 0xe5, 0xff, 0xff,
  0x3c, 0xe5, 0xff, 0xff, 0x40, 0xe5, 0xff, 0xff, 0x44, 0xe5, 0xff, 0xff,
  0x48, 0xe5, 0xff, 0xff, 0x4c, 0xe5, 0xff, 0xff, 0x50, 0xe5, 0xff, 0xff,
  0x9a, 0xf0, 0xff, 0xff, 0x04, 0x00, 0x00, 0x00, 0x40, 0x00, 0x00, 0x00,
  0xdd, 0xb0, 0x41, 0x3e, 0xef, 0x33, 0x08, 0xbf, 0x11, 0x69, 0x74, 0x3f,
  0xd3, 0xc6, 0x89, 0x3f, 0xd7, 0x27, 0x34, 0xbf, 0x5c, 0x69, 0x14, 0x3f,
  0x18, 0x27, 0x6b, 0x3f, 0xf6, 0x80, 0x34, 0x3f, 0xb2, 0x83, 0x4d, 0xbf,
  0x2f, 0x02, 0x0b, 0x3f, 0x3d, 0x93, 0x0a, 0xbf, 0x14, 0xd4, 0x62, 0xbf,
  0xa1, 0x48, 0x5c, 0xbf, 0x14, 0x0c, 0xc5, 0xbe, 0xec, 0x11, 0x97, 0xbf,
  0xed, 0x79, 0x2c, 0x3f, 0xe6, 0xf0, 0xff, 0xff, 0x04, 0x00, 0x00, 0x00,
  0x00, 0x04, 0x00, 0x00, 0x51, 0x48, 0xfb, 0xbe, 0x41, 0x95, 0x51, 0xbd,
  0x74, 0x3f, 0x0e, 0x3f, 0x47, 0xe3, 0xc6, 0xbe, 0x90, 0x97, 0xa6, 0x3d,
  0x79, 0xcb, 0x53, 0x3f, 0xec, 0x1c, 0xef, 0xbb, 0xcc, 0x46, 0x1c, 0xbe,
  0xee, 0xa2, 0x84, 0xbc, 0x05, 0xd6, 0x9c, 0xbe, 0xb5, 0x5b, 0xdd, 0xbe,
  0x1b, 0x3f, 0x3f, 0xbe, 0xd6, 0x24, 0x8f, 0xbd, 0xdb, 0x94, 0x50, 0xbe,
  0x2c, 0x15, 0x42, 0xbf, 0xb5, 0xf4, 0x63, 0x3e, 0x8c, 0x1a, 0x34, 0x3f,
  0xdc, 0xac, 0x02, 0xbf, 0x97, 0x7c, 0xdb, 0xbe, 0x83, 0x24, 0xc2, 0x3e,
  0x4f, 0x94, 0xde, 0x3e, 0x25, 0xae, 0xa3, 0xbf, 0xa7, 0x81, 0xee, 0x3e,
  0x93, 0x91, 0xab, 0xbc, 0x1a, 0xa4, 0x9d, 0x3d, 0xf7, 0x1b, 0xf8, 0x3e,
  0x74, 0xe9, 0x51, 0x3f, 0xbd, 0x69, 0x95, 0x3e, 0x6c, 0xc9, 0x82, 0xbd,
  0xf0, 0xff, 0xc7, 0xbe, 0x05, 0x99, 0xf7, 0x3f, 0x79, 0xe4, 0x93, 0xbe,
  0x40, 0x93, 0x9f, 0xbe, 0x0b, 0x9c, 0xc5, 0x3d, 0x69, 0x92, 0x70, 0x3f,
  0x05, 0x07, 0x9e, 0xbe, 0xb1, 0xe0, 0x67, 0x3e, 0xe6, 0x65, 0x7f, 0x3f,
  0x6b, 0x03, 0xe1, 0xbe, 0x78, 0xc6, 0xaf, 0xbe, 0x65, 0x0a, 0x9e, 0xbe,
  0x5e, 0x3b, 0x3e, 0xbf, 0x04, 0x37, 0x68, 0xbf, 0x89, 0xc8, 0xfb, 0xbe,
  0x5d, 0x00, 0x55, 0xbe, 0xaa, 0xf0, 0x19, 0x3e, 0xf0, 0xb1, 0xda, 0xbf,
  0x75, 0x39, 0x48, 0x3f, 0xe0, 0x59, 0x25, 0xbe, 0x04, 0xfd, 0xa8, 0x3d,
  0x2c, 0xd6, 0xc4, 0x3e, 0x65, 0x5a, 0xb7, 0xbe, 0x51, 0x7f, 0x6a, 0xbe,
  0x65, 0x65, 0x10, 0x3f, 0xc6, 0xc1, 0x63, 0x3d, 0x65, 0xaa, 0x47, 0xbe,
  0x8c, 0x02, 0x18, 0xbf, 0xc5, 0xd3, 0x47, 0xbf, 0x2a, 0x39, 0x51, 0xbf,
  0xba, 0xe5, 0xa8, 0x3e, 0xe9, 0xde, 0x31, 0xbe, 0x85, 0x68, 0x33, 0x3d,
  0x24, 0x3c, 0xa5, 0xbf, 0xab, 0x73, 0x21, 0x3f, 0x04, 0x4a, 0xd1, 0x3f,
  0x55, 0xfa, 0x45, 0xbf, 0xbc, 0x3c, 0xb0, 0xbf, 0xad, 0x95, 0x9f, 0x3f,
  0xa7, 0xae, 0x48, 0x3f, 0xa7, 0xb5, 0xcd, 0xbf, 0xdd, 0x35, 0x7f, 0x3f,
  0x76, 0xa4, 0xce, 0x3e, 0x68, 0x48, 0xb6, 0x3f, 0x46, 0x44, 0x7f, 0x3f,
  0xd7, 0x25, 0x92, 0x3f, 0x8a, 0xff, 0x52, 0x3e, 0x1a, 0xb7, 0x6d, 0x3d,
  0xfd, 0xb1, 0x54, 0xbf, 0x07, 0x14, 0x0e, 0x40, 0x2e, 0xc6, 0xbc, 0xbf,
  0xcf, 0x2c, 0x6f, 0xbf, 0x7a, 0xeb, 0x91, 0x3e, 0xdb, 0x2d, 0x84, 0x3f,
  0x8e, 0xd9, 0xe1, 0xbd, 0xdd, 0x16, 0x18, 0xbf, 0x45, 0x04, 0x83, 0x3f,
  0xe8, 0x06, 0xb0, 0xbe, 0xe2, 0xf0, 0x38, 0x3e, 0x3b, 0x10, 0x00, 0xbf,
  0xf1, 0x5f, 0x80, 0xbf, 0xf5, 0x12, 0xa7, 0xbe, 0xc7, 0x7d, 0x02, 0xbf,
  0x4e, 0x7e, 0x8d, 0xbd, 0x4a, 0x92, 0x60, 0x3e, 0x56, 0xc6, 0xc5, 0xbf,
  0xaa, 0xbe, 0xa5, 0x3e, 0xc7, 0xd7, 0xe6, 0xbe, 0xca, 0xeb, 0xc0, 0x3e,
  0x70, 0x79, 0x67, 0x3f, 0x61, 0xab, 0xd5, 0xbe, 0x09, 0xf8, 0x84, 0x3d,
  0xfb, 0xe8, 0x78, 0x3f, 0x4b, 0x5a, 0x04, 0xbf, 0x2f, 0xd9, 0x5d, 0xbe,
  0x87, 0x5f, 0x23, 0xbf, 0x46, 0xd9, 0x2a, 0xbf, 0xd0, 0xef, 0xb8, 0xbe,
  0xc9, 0x1a, 0xa8, 0xbe, 0x60, 0x12, 0x58, 0x3e, 0xfa, 0xfc, 0x9c, 0x3d,
  0x6b, 0x1c, 0x82, 0xbf, 0xe3, 0x18, 0x75, 0x3d, 0x61, 0x6a, 0x4e, 0xbf,
  0x05, 0xc0, 0xa4, 0x3c, 0x04, 0x17, 0x7d, 0x3f, 0x3e, 0x53, 0x51, 0xbd,
  0x91, 0x9c, 0x9b, 0xbe, 0x74, 0x91, 0x4a, 0x3f, 0x14, 0x4d, 0xb1, 0xbe,
  0x23, 0x26, 0x71, 0xbe, 0x28, 0x42, 0xdb, 0xbd, 0xa0, 0xbf, 0x29, 0xbf,
  0xa8, 0x6a, 0xde, 0xbe, 0xf0, 0x10, 0x3a, 0xbe, 0x8c, 0x66, 0x85, 0xbe,
  0xcc, 0x26, 0xdc, 0x3e, 0xe1, 0xaa, 0xeb, 0xbf, 0x57, 0x85, 0x0b, 0x3f,
  0xf6, 0xdf, 0xdc, 0x3f, 0x57, 0x78, 0x4e, 0xbf, 0x42, 0x9c, 0xd9, 0xbf,
  0xc8, 0x57, 0xca, 0x3f, 0x98, 0x57, 0x86, 0x3f, 0x82, 0xc1, 0xd0, 0xbf,
  0xb4, 0xa2, 0xb9, 0x3f, 0xda, 0xcf, 0x80, 0xbe, 0x48, 0x4e, 0xb4, 0x3f,
  0x7b, 0x5d, 0x93, 0x3f, 0x5b, 0x12, 0xeb, 0x3f, 0xb0, 0x0d, 0xde, 0x3e,
  0x12, 0x9a, 0xc1, 0xbd, 0xee, 0xa7, 0xac, 0xbf, 0xe5, 0x4b, 0x3c, 0x40,
  0xf9, 0x26, 0xd8, 0xbf, 0x0e, 0xea, 0xaa, 0xbe, 0x7d, 0xfb, 0x6b, 0x3e,
  0x1b, 0xf0, 0x81, 0x3f, 0x41, 0xee, 0xb6, 0xbe, 0x71, 0xd2, 0x25, 0xbf,
  0x72, 0x97, 0xa0, 0x3f, 0x8e, 0xba, 0xef, 0xbe, 0x3b, 0x1a, 0xce, 0xbe,
  0xcc, 0xc0, 0x8d, 0xbe, 0x49, 0xa6, 0x17, 0xbf, 0x46, 0xc1, 0xd4, 0xbe,
  0x65, 0x1c, 0x0c, 0xbf, 0x72, 0xde, 0x9b, 0xbe, 0xdf, 0xae, 0x64, 0x3e,
  0x8f, 0xe5, 0xeb, 0xbf, 0x69, 0x60, 0xcf, 0x3e, 0x5b, 0xc0, 0x39, 0x3f,
  0x3f, 0x49, 0xc7, 0xbe, 0x62, 0xd6, 0x4c, 0xbf, 0xc3, 0x1a, 0x00, 0x3f,
  0xd0, 0x2d, 0xff, 0x3e, 0x49, 0xa8, 0xe2, 0xbe, 0xfe, 0x9c, 0x7c, 0x3e,
  0x5e, 0x2d, 0xbf, 0x3e, 0x28, 0xa5, 0x35, 0x3f, 0x47, 0xa1, 0x06, 0x3e,
  0x44, 0xca, 0xd3, 0x3e, 0x4c, 0x44, 0x91, 0x3e, 0x46, 0xc9, 0xe4, 0xbe,
  0x25, 0xce, 0xf4, 0xbd, 0x20, 0xa1, 0x95, 0x3f, 0x88, 0xde, 0x21, 0xbf,
  0x62, 0xab, 0xfd, 0x3e, 0x7a, 0xce, 0xae, 0xbe, 0x8f, 0x77, 0x63, 0xbf,
  0x17, 0xf1, 0x18, 0x3f, 0x67, 0x6d, 0xdb, 0x3e, 0x4c, 0x00, 0x44, 0xbf,
  0xe6, 0xab, 0x09, 0xbe, 0x87, 0x14, 0xad, 0x3e, 0xc1, 0x12, 0x1c, 0x3e,
  0x74, 0xa9, 0xa0, 0x3c, 0x41, 0xdb, 0x46, 0x3e, 0x39, 0xde, 0xbd, 0x3e,
  0x2d, 0xf9, 0x4e, 0x3a, 0xa6, 0xa8, 0x54, 0x3e, 0xac, 0x82, 0xa3, 0x3f,
  0x48, 0x03, 0x29, 0xbe, 0xbc, 0x64, 0x9e, 0x3f, 0x55, 0xe3, 0x3c, 0xbf,
  0x45, 0x8d, 0xc3, 0xbf, 0x26, 0x77, 0x70, 0x3f, 0xe9, 0x12, 0x2a, 0x3f,
  0xda, 0x20, 0xe8, 0xbf, 0x40, 0x28, 0xe7, 0x3f, 0x30, 0x10, 0xc2, 0xbe,
  0xd8, 0x73, 0xc4, 0x3f, 0x1a, 0xaf, 0xcb, 0x3f, 0xe0, 0x39, 0xb5, 0x3f,
  0x77, 0x24, 0x0f, 0x3f, 0x76, 0x95, 0x27, 0xbf, 0x3a, 0xf2, 0x5c, 0xbf,
  0x68, 0x17, 0x3a, 0x40, 0x8f, 0xea, 0xbe, 0xbf, 0x71, 0x12, 0x4b, 0x3f,
  0x04, 0x49, 0xe0, 0xbe, 0x87, 0x1b, 0x89, 0xbf, 0xba, 0x58, 0x6a, 0x3f,
  0x59, 0x58, 0x52, 0x3f, 0x56, 0x2a, 0xbf, 0xbf, 0xf9, 0x17, 0x45, 0x3f,
  0xa4, 0xa3, 0x16, 0x3e, 0x59, 0xd1, 0x85, 0x3e, 0x6b, 0x97, 0x69, 0x3f,
  0x9f, 0x19, 0xa2, 0x3f, 0x07, 0x73, 0x43, 0xbc, 0x95, 0x22, 0x07, 0x3e,
  0x7e, 0x96, 0xa0, 0xbe, 0x97, 0x95, 0xe2, 0x3f, 0xd2, 0x6c, 0x38, 0xbf,
  0xdf, 0xc0, 0x30, 0x3f, 0x43, 0x2d, 0xfe, 0xbe, 0x63, 0xc0, 0x57, 0xbf,
  0xef, 0xdd, 0xd4, 0x3e, 0xe3, 0x7e, 0xdb, 0x3e, 0x2b, 0xae, 0x3d, 0xbf,
  0x81, 0x99, 0xb2, 0x3e, 0x66, 0xfb, 0x9c, 0xbe, 0xc5, 0xdb, 0x41, 0x3f,
  0x07, 0x61, 0xff, 0x3e, 0x9f, 0x7e, 0xe3, 0x3e, 0xe3, 0x32, 0xd5, 0xbd,
  0x05, 0xd7, 0xc5, 0x3e, 0xe3, 0xea, 0xfd, 0xbe, 0xed, 0xef, 0xdb, 0x3f,
  0xe2, 0x9b, 0x1d, 0xbf, 0x16, 0xf2, 0x6a, 0xbf, 0xfb, 0xe2, 0xf2, 0x3e,
  0xcb, 0x68, 0x83, 0x3f, 0x6b, 0x07, 0x7e, 0xbf, 0xac, 0x71, 0x56, 0xbd,
  0xa8, 0x44, 0x9f, 0x3f, 0x7e, 0x4e, 0x55, 0xbf, 0x81, 0x24, 0xb9, 0x3d,
  0x11, 0xbc, 0x67, 0xbf, 0xb1, 0xfd, 0x1b, 0xbf, 0x05, 0xe1, 0x59, 0xbf,
  0x5c, 0x33, 0x9a, 0xbe, 0x38, 0xcf, 0x8a, 0xbc, 0x4c, 0x66, 0x43, 0x3f,
  0x4c, 0x8a, 0xfa, 0xbf, 0xf3, 0x83, 0xf3, 0x3e, 0xf2, 0xf4, 0xff, 0xff,
  0x04, 0x00, 0x00, 0x00, 0x00, 0x0a, 0x00, 0x00, 0xa2, 0xfa, 0x89, 0x3f,
  0xe0, 0x7e, 0xa2, 0x3f, 0x0c, 0x19, 0x12, 0xc0, 0xbe, 0xdf, 0xee, 0x3f,
  0xf3, 0xda, 0xae, 0x3f, 0x4d, 0x78, 0xc4, 0xbf, 0x16, 0x42, 0xf9, 0xbf,
  0xe0, 0x8f, 0xa2, 0xbf, 0x62, 0xba, 0xcd, 0xbf, 0x23, 0xab, 0x87, 0x3f,
  0x5c, 0x23, 0xb0, 0xbb, 0xb0, 0xdb, 0x66, 0xbe, 0x5e, 0x08, 0x0c, 0x3e,
  0xec, 0x86, 0x90, 0x3e, 0x58, 0x33, 0xf9, 0xbd, 0x9d, 0xab, 0xab, 0x3e,
  0x5b, 0x2d, 0x5f, 0x3d, 0xc0, 0x5f, 0xad, 0x3d, 0xd2, 0xe3, 0xf5, 0x3b,
  0x24, 0x2b, 0x1a, 0xbf, 0x3e, 0x4a, 0x4c, 0x3f, 0xae, 0x28, 0x8e, 0x3f,
  0x82, 0xa5, 0xd3, 0x3d, 0x12, 0x8e, 0x09, 0x3f, 0xd2, 0x14, 0x5e, 0x3f,
  0x46, 0x67, 0xe9, 0xbe, 0x47, 0x8a, 0xc7, 0xbd, 0xa4, 0xad, 0x2f, 0xbf,
  0xc5, 0xd7, 0x46, 0xbe, 0x96, 0xa8, 0x29, 0x3f, 0x11, 0x4b, 0x89, 0xbe,
  0x8e, 0x43, 0x02, 0xbd, 0x96, 0xa8, 0x55, 0xbe, 0xdd, 0x40, 0xe5, 0xbd,
  0xe8, 0xbd, 0x86, 0xbe, 0xd1, 0xf5, 0x06, 0xbd, 0x73, 0x7f, 0x86, 0x3e,
  0x66, 0x44, 0x77, 0xbd, 0xc8, 0xd4, 0x65, 0x3e, 0x6c, 0x1e, 0xe9, 0xbe,
  0x38, 0x8d, 0x2f, 0xbf, 0xb2, 0xb8, 0x04, 0xbf, 0x81, 0xbc, 0x8b, 0x3f,
  0x2d, 0x6b, 0x54, 0xbf, 0x3d, 0xcf, 0x08, 0xbf, 0xca, 0x39, 0x40, 0x3f,
  0x0b, 0x1c, 0x58, 0x3f, 0x57, 0xcd, 0x0e, 0x3f, 0x43, 0x44, 0x1c, 0x3f,
  0x11, 0x65, 0x08, 0xbf, 0x7d, 0x76, 0x0d, 0x3e, 0x67, 0x46, 0xd9, 0xbd,
  0x9e, 0x31, 0x75, 0x3e, 0xca, 0x97, 0x76, 0x3e, 0x54, 0xc2, 0x37, 0x3e,
  0x68, 0x91, 0xb9, 0xbc, 0x78, 0x08, 0x71, 0x3e, 0x4f, 0x62, 0x2a, 0x3e,
  0x4c, 0xed, 0x1b, 0x3e, 0xe9, 0x6e, 0xce, 0xbe, 0xd5, 0x88, 0xb8, 0xbe,
  0x0c, 0xa9, 0x00, 0xbe, 0x86, 0xcc, 0x9e, 0xbe, 0x7b, 0xe1, 0x4f, 0x3e,
  0xdf, 0x03, 0xef, 0xbe, 0x53, 0xba, 0x5b, 0xbe, 0xf4, 0xb5, 0x98, 0xbe,
  0x48, 0xbc, 0xe1, 0x3e, 0xe6, 0x12, 0xc4, 0x3d, 0x04, 0x84, 0x01, 0xbf,
  0x55, 0x66, 0x4f, 0xbe, 0x2d, 0x25, 0xb2, 0xbe, 0x64, 0x96, 0x51, 0x3c,
  0x91, 0xa7, 0x82, 0xbe, 0xe0, 0x30, 0xa1, 0xbe, 0x7f, 0x55, 0x31, 0x3e,
  0x01, 0xf6, 0x58, 0xbe, 0x6a, 0x52, 0x4d, 0x3e, 0x6f, 0x05, 0x5d, 0x3e,
  0xdd, 0x5d, 0x36, 0x3e, 0x53, 0xbb, 0xac, 0xbe, 0xe6, 0xda, 0xe9, 0xbd,
  0xf0, 0x0c, 0xa5, 0x3f, 0xc6, 0x3c, 0x8e, 0xbf, 0xee, 0x0c, 0x3d, 0xbf,
  0xfa, 0x7e, 0x3b, 0x3f, 0xc5, 0x3a, 0x34, 0x3f, 0xee, 0x17, 0x2b, 0x3f,
  0x01, 0x80, 0x95, 0x3f, 0xaf, 0x85, 0xe7, 0xbe, 0x5d, 0x39, 0x81, 0x3e,
  0xb6, 0x0d, 0x59, 0x3c, 0xa1, 0xed, 0x91, 0xbe, 0x86, 0x2e, 0x4c, 0xbe,
  0x4e, 0x40, 0x87, 0x3e, 0x2b, 0x41, 0xfc, 0xbd, 0x8f, 0xe0, 0x25, 0x3e,
  0x60, 0x27, 0x31, 0x3e, 0xea, 0x70, 0xa7, 0x3c, 0xaf, 0x08, 0x13, 0x3d,
  0x8e, 0x2a, 0x19, 0xbe, 0x73, 0xa6, 0xac, 0xbe, 0x38, 0x46, 0x8a, 0xbe,
  0x24, 0xbc, 0x6c, 0x3d, 0x93, 0xab, 0x1f, 0xbe, 0xcc, 0xa3, 0xb8, 0x3e,
  0x7f, 0xaa, 0xc1, 0xbd, 0x08, 0x1b, 0xc6, 0x3e, 0x88, 0x66, 0x48, 0xbe,
  0x7f, 0xb3, 0x7a, 0xbe, 0xca, 0x4a, 0x3b, 0x3e, 0xf4, 0xac, 0x0b, 0xbe,
  0xac, 0xb7, 0xb2, 0x3e, 0xd9, 0x3e, 0x1f, 0x3e, 0x15, 0x6e, 0xec, 0x3d,
  0x5c, 0xcd, 0x9f, 0x3e, 0x1d, 0xc7, 0x96, 0xbe, 0xb7, 0xea, 0x87, 0xbe,
  0x6c, 0x3a, 0x49, 0xbe, 0x68, 0x00, 0xae, 0x3e, 0xef, 0x19, 0x4a, 0x3f,
  0x35, 0x82, 0x37, 0x3f, 0x2a, 0x92, 0xcb, 0xbf, 0xc8, 0xee, 0xfa, 0x3f,
  0x83, 0xb1, 0x9b, 0x3f, 0x48, 0xc0, 0x80, 0xbf, 0xcf, 0x44, 0xac, 0xbf,
  0x23, 0xb9, 0x73, 0xbf, 0xc7, 0x96, 0xca, 0xbf, 0xbe, 0xb1, 0x1d, 0x3f,
  0xb2, 0xf9, 0x77, 0x3e, 0xc1, 0x9f, 0x48, 0xbe, 0xb4, 0x51, 0x6f, 0x3e,
  0xde, 0xf1, 0x83, 0xbc, 0x9d, 0x5e, 0x1a, 0x3e, 0xc6, 0xa7, 0xb1, 0xbd,
  0xe4, 0x58, 0xf3, 0xbd, 0x7a, 0xf0, 0x92, 0x3e, 0x1f, 0x46, 0x9e, 0xbd,
  0x8e, 0x6a, 0x38, 0xbc, 0xa5, 0xc6, 0x4b, 0x3f, 0x28, 0x3a, 0x5b, 0x3f,
  0x18, 0xd4, 0x89, 0xbe, 0xd0, 0xf8, 0xe1, 0xbb, 0x72, 0xf7, 0x21, 0x3f,
  0x9e, 0xc0, 0x80, 0xbe, 0x60, 0x61, 0x5f, 0xbe, 0x08, 0xde, 0x23, 0xbf,
  0x23, 0x70, 0x3b, 0xbe, 0x4d, 0x24, 0x53, 0x3f, 0x8e, 0x0d, 0xa1, 0xbd,
  0xa1, 0x82, 0xd9, 0x3c, 0xa6, 0x48, 0x36, 0x3e, 0x01, 0x06, 0xd9, 0x3b,
  0xd0, 0x74, 0x9b, 0xbe, 0x90, 0x8d, 0x2a, 0x3e, 0xc2, 0x64, 0xa1, 0x3e,
  0xd2, 0xfe, 0x11, 0xbd, 0xaa, 0xac, 0x41, 0xbd, 0x6c, 0x30, 0x54, 0x3d,
  0x5d, 0x01, 0x57, 0x3f, 0xfd, 0x2c, 0x38, 0x3f, 0xf5, 0xa5, 0xb7, 0xbf,
  0x85, 0x06, 0x85, 0x3f, 0x27, 0xfd, 0x0a, 0x3f, 0x7f, 0xcc, 0x31, 0xbf,
  0xa5, 0x0d, 0x54, 0xbf, 0x27, 0x96, 0x54, 0xbf, 0x0b, 0x34, 0xa2, 0xbf,
  0x21, 0x8b, 0x89, 0x3e, 0x9a, 0x58, 0xd2, 0xba, 0x8d, 0x86, 0x5f, 0x3e,
  0xf9, 0x73, 0xf4, 0xbb, 0xd7, 0x70, 0x84, 0x3e, 0xf1, 0x44, 0x78, 0xbd,
  0xde, 0xf4, 0xfd, 0x3d, 0x2a, 0xc7, 0xeb, 0x3d, 0x35, 0xa2, 0x4c, 0xbe,
  0x11, 0x48, 0x89, 0x3e, 0x06, 0x26, 0x1e, 0x3e, 0x97, 0x9d, 0xa7, 0x3e,
  0xe2, 0x59, 0x09, 0x3e, 0x83, 0xa7, 0xf0, 0x3d, 0x8a, 0x52, 0xfa, 0xbd,
  0xfe, 0xc7, 0x0d, 0x3e, 0x84, 0xb1, 0x6f, 0xbd, 0xa1, 0x6f, 0x64, 0x3d,
  0x51, 0x5a, 0x9b, 0xbe, 0x94, 0x93, 0x18, 0xbe, 0x78, 0x86, 0x3f, 0x3e,
  0x80, 0x30, 0x9a, 0x3e, 0x52, 0x5c, 0x89, 0x3e, 0x21, 0x7d, 0x39, 0xbe,
  0x59, 0x8b, 0x31, 0x3e, 0xd2, 0xd1, 0x19, 0x3e, 0x45, 0x38, 0x41, 0xbe,
  0x4a, 0x88, 0x21, 0x3e, 0xc1, 0x1d, 0x37, 0x3e, 0x7b, 0xad, 0x81, 0xbe,
  0xa7, 0xc4, 0xb0, 0x3d, 0x3a, 0x3f, 0x76, 0xbf, 0x42, 0xa1, 0x6c, 0xbf,
  0x62, 0x0f, 0xdb, 0x3f, 0xa1, 0x4d, 0xa3, 0xbf, 0x37, 0x70, 0x80, 0xbf,
  0xd6, 0xab, 0xa5, 0x3f, 0x93, 0xf1, 0xbe, 0x3f, 0x3e, 0xd9, 0x3e, 0x3f,
  0xd7, 0x6a, 0xb8, 0x3f, 0x6f, 0x4e, 0x04, 0xbf, 0x57, 0x40, 0x9a, 0x3e,
  0xb3, 0x02, 0xc3, 0xbd, 0x32, 0x30, 0xcd, 0x3d, 0xb2, 0x0d, 0x07, 0x3e,
  0x12, 0x9e, 0x9a, 0x3e, 0x64, 0x5a, 0xb4, 0xbb, 0x76, 0x2d, 0x28, 0xbe,
  0x76, 0x86, 0x80, 0xbe, 0xbb, 0x72, 0x9b, 0x3d, 0xea, 0xef, 0x9b, 0x3e,
  0xfe, 0x76, 0x70, 0xbe, 0x24, 0x5b, 0x3b, 0xbf, 0xa7, 0x9d, 0x2e, 0xbe,
  0x66, 0x3b, 0x33, 0xbd, 0xa1, 0xc5, 0xf8, 0xbe, 0xb3, 0x84, 0x9c, 0xbd,
  0xe5, 0xfd, 0xdc, 0x3e, 0xe0, 0x09, 0x58, 0x3e, 0xc4, 0xf8, 0xdb, 0x3c,
  0xf7, 0xaf, 0x54, 0xbf, 0x7d, 0x3a, 0xf5, 0xbc, 0x53, 0xe9, 0x66, 0x3e,
  0x40, 0x5e, 0xab, 0x3e, 0xb4, 0xde, 0x62, 0x3e, 0xd7, 0x09, 0x04, 0xbe,
  0xf3, 0x76, 0x6f, 0xbd, 0x33, 0x45, 0x0d, 0xbd, 0xe4, 0x3e, 0x9b, 0xbd,
  0xeb, 0xa0, 0x29, 0xbe, 0x59, 0x3c, 0x85, 0x3e, 0x56, 0xa1, 0x40, 0x3f,
  0xd4, 0xfd, 0x53, 0x3f, 0x97, 0x34, 0x95, 0xbf, 0xf9, 0xc2, 0xa9, 0x3f,
  0xf6, 0x41, 0x26, 0x3f, 0xfc, 0x81, 0x6d, 0xbf, 0xdc, 0xc6, 0xa4, 0xbf,
  0x5f, 0x29, 0x80, 0xbf, 0x35, 0x5e, 0xa6, 0xbf, 0xa5, 0x21, 0x1b, 0x3f,
  0x00, 0xb5, 0xe0, 0xbd, 0x78, 0xc7, 0xe1, 0x3d, 0x44, 0x7f, 0x70, 0xbd,
  0x6e, 0x09, 0xe4, 0xbd, 0x73, 0x27, 0x67, 0x3d, 0xfb, 0xa5, 0x2b, 0x3c,
  0x0a, 0x7c, 0x18, 0xbe, 0x1e, 0xb5, 0x46, 0x3e, 0x63, 0x2a, 0xba, 0x3b,
  0x07, 0x13, 0x43, 0xbe, 0x00, 0xe0, 0x67, 0x3e, 0x2f, 0xad, 0xd2, 0x3e,
  0x48, 0x5d, 0xc1, 0xbd, 0x4e, 0x42, 0xee, 0xbd, 0x93, 0xe4, 0x10, 0x3d,
  0x74, 0xc2, 0x1e, 0x3e, 0x48, 0xca, 0x36, 0xbd, 0x26, 0xbd, 0x8b, 0x3b,
  0x3b, 0x9a, 0xf1, 0xbd, 0x40, 0xfe, 0x07, 0x3f, 0xb8, 0xc6, 0x57, 0xbe,
  0xb4, 0x09, 0xb6, 0x3c, 0xa1, 0x7a, 0xd2, 0xbd, 0x46, 0xc0, 0xba, 0x3d,
  0x0f, 0x33, 0x8f, 0xbe, 0xf5, 0x11, 0xa7, 0xbd, 0x98, 0x8f, 0x24, 0xbc,
  0xbf, 0x40, 0x08, 0xbe, 0xf1, 0x41, 0xf6, 0x3c, 0x89, 0x6d, 0x56, 0xbe,
  0x8f, 0xdd, 0x81, 0x3d, 0xa4, 0x2f, 0x73, 0x3e, 0x74, 0x6f, 0xe6, 0xbe,
  0x43, 0xd0, 0xfb, 0x3e, 0xef, 0x9f, 0x61, 0xbe, 0x78, 0xfb, 0x00, 0x3d,
  0xdc, 0x57, 0xd9, 0xbd, 0x84, 0x03, 0xfc, 0x3d, 0xfc, 0xee, 0x0e, 0xbf,
  0xa0, 0x29, 0x7b, 0xbd, 0x98, 0x8c, 0xcb, 0xbc, 0x56, 0x8f, 0x31, 0xbd,
  0x54, 0xfb, 0x9e, 0xbe, 0x9b, 0x1b, 0x3e, 0xbe, 0xcf, 0xb4, 0x6c, 0xbe,
  0x20, 0xaf, 0x19, 0xbe, 0x33, 0x50, 0x83, 0xbe, 0x95, 0x73, 0x42, 0xbd,
  0x6b, 0x11, 0x2f, 0x3d, 0xf5, 0x85, 0xee, 0x3d, 0x11, 0xf8, 0x15, 0xbd,
  0x05, 0xb1, 0x90, 0x3e, 0x21, 0x01, 0x84, 0xbe, 0x3f, 0x67, 0x7e, 0x3e,
  0x26, 0xe8, 0xd3, 0xbc, 0xed, 0x99, 0x00, 0x3d, 0xc0, 0x1d, 0x0e, 0x3e,
  0x66, 0x62, 0x57, 0xbe, 0xb6, 0x41, 0x97, 0xbe, 0xe6, 0xbf, 0xa1, 0xbe,
  0x9a, 0x92, 0x0d, 0xbd, 0xfa, 0x56, 0x26, 0xbb, 0x65, 0xaf, 0x4f, 0x3e,
  0x77, 0xfb, 0xa6, 0x3d, 0xea, 0xe6, 0x99, 0xbe, 0xd2, 0x2a, 0xb1, 0xbe,
  0xd9, 0xf8, 0xea, 0xbc, 0x1a, 0x25, 0xe5, 0xbc, 0x40, 0xb8, 0xd2, 0xbe,
  0xb0, 0x60, 0x93, 0xbe, 0x70, 0xec, 0x2c, 0x3f, 0xc7, 0xcb, 0x98, 0x3e,
  0x38, 0xd9, 0xc8, 0xbf, 0x7f, 0x18, 0xbc, 0x3f, 0xc4, 0x99, 0x26, 0x3f,
  0xb4, 0x6a, 0x2e, 0xbf, 0xb2, 0x85, 0x63, 0xbf, 0x38, 0x7b, 0x4d, 0xbf,
  0x84, 0x15, 0x85, 0xbf, 0xe5, 0xc1, 0x31, 0x3f, 0xe9, 0x17, 0x94, 0xbd,
  0x11, 0x57, 0x8a, 0xbd, 0x6a, 0xc5, 0xa6, 0x3e, 0x8f, 0xc1, 0x47, 0xbe,
  0xa2, 0xa8, 0x84, 0x3e, 0xbd, 0x77, 0x43, 0x3c, 0xc4, 0xc6, 0x21, 0x3d,
  0x71, 0xc7, 0x33, 0x3e, 0x8f, 0x1d, 0x78, 0xbe, 0xd3, 0x22, 0x08, 0xbe,
  0xc8, 0x43, 0x01, 0x3f, 0x3a, 0xb0, 0xcc, 0x3e, 0x79, 0x55, 0x69, 0x3e,
  0x34, 0x0c, 0xf0, 0x3d, 0xf3, 0xe9, 0x4f, 0x3e, 0xdf, 0xdd, 0x29, 0xbe,
  0xbb, 0xb7, 0x68, 0xbe, 0x7c, 0xb9, 0xab, 0xbd, 0x18, 0xaa, 0xa5, 0xbb,
  0x1b, 0x41, 0x52, 0x3e, 0x6d, 0x37, 0x06, 0xbb, 0x13, 0x81, 0x54, 0x3e,
  0xeb, 0x33, 0x8d, 0xbc, 0x77, 0xf5, 0xa2, 0xbc, 0x0b, 0x31, 0x99, 0xbe,
  0xdb, 0x9f, 0x42, 0xbe, 0x3f, 0xd4, 0x82, 0xbd, 0x88, 0x70, 0x45, 0xbe,
  0x35, 0x5d, 0xb8, 0xbd, 0xcb, 0xab, 0x22, 0xbe, 0x9e, 0x22, 0x47, 0x3f,
  0xe6, 0xeb, 0x96, 0x3f, 0xdc, 0xc6, 0xcc, 0xbf, 0xe2, 0x01, 0xc7, 0x3f,
  0xcd, 0xff, 0xa7, 0x3f, 0x28, 0x39, 0xb6, 0xbf, 0x2d, 0x86, 0xe3, 0xbf,
  0x93, 0xa5, 0x93, 0xbf, 0xcc, 0xe6, 0xd9, 0xbf, 0x25, 0xcb, 0x38, 0x3f,
  0xe5, 0x24, 0x3c, 0x3e, 0xa2, 0x46, 0xfb, 0xbd, 0x73, 0xb3, 0x7b, 0xbe,
  0x19, 0xda, 0xf1, 0xbd, 0x94, 0xfa, 0x24, 0xbe, 0x3c, 0x07, 0x7a, 0xbe,
  0x15, 0x18, 0xc2, 0x3e, 0x57, 0xc1, 0x0a, 0x3e, 0xc5, 0xc3, 0x4c, 0xbd,
  0x42, 0x3a, 0xda, 0xbe, 0xfa, 0x50, 0x26, 0x3f, 0xf6, 0x8a, 0xc9, 0x3e,
  0x8a, 0x45, 0x4d, 0xbe, 0x12, 0x14, 0xf2, 0x3e, 0xe1, 0xc3, 0x57, 0x3f,
  0xfe, 0xed, 0xaf, 0xbd, 0x38, 0x51, 0xc0, 0xbe, 0xed, 0x48, 0x5b, 0xbe,
  0x6e, 0xc2, 0xc4, 0x3d, 0x1f, 0xac, 0x5c, 0x3f, 0x4c, 0xc5, 0xb1, 0x3d,
  0xe8, 0x60, 0x01, 0x3e, 0xf5, 0x09, 0x42, 0xbe, 0xdc, 0x65, 0x3e, 0x3e,
  0x47, 0x2f, 0x3c, 0xbe, 0x10, 0x84, 0x48, 0x3e, 0x86, 0x2f, 0xa3, 0xbd,
  0x9b, 0xcb, 0xc9, 0x3e, 0x50, 0xca, 0x18, 0x3e, 0x7a, 0x63, 0x09, 0xbf,
  0xa2, 0x23, 0x9b, 0x3f, 0x38, 0xba, 0xcd, 0x3f, 0xe8, 0xe4, 0x21, 0xc0,
  0x43, 0x7f, 0x17, 0x40, 0x94, 0xd1, 0xc0, 0x3f, 0x94, 0x26, 0xcd, 0xbf,
  0xfe, 0xef, 0xf2, 0xbf, 0xdb, 0x52, 0xb5, 0xbf, 0x89, 0x9f, 0xda, 0xbf,
  0xcb, 0x37, 0x93, 0x3f, 0xcd, 0xb1, 0x18, 0xbe, 0x3b, 0x7d, 0x6b, 0x3d,
  0x2e, 0xc4, 0x46, 0xbe, 0xe8, 0x36, 0x3c, 0x3d, 0x62, 0x54, 0x10, 0x3e,
  0xb4, 0x97, 0x7b, 0x3e, 0x62, 0x3e, 0x22, 0x3c, 0x44, 0xf4, 0x3c, 0x3e,
  0xf2, 0x15, 0xdf, 0xbb, 0x27, 0x85, 0x31, 0xbf, 0x1a, 0xd2, 0xa1, 0x3f,
  0xa9, 0xec, 0xb0, 0x3f, 0xd1, 0xde, 0x6c, 0x3e, 0xea, 0xcd, 0xfb, 0x3e,
  0x81, 0xd2, 0x95, 0x3f, 0x60, 0xf6, 0xfd, 0xbe, 0x12, 0xf1, 0xd8, 0xbe,
  0x47, 0x17, 0x92, 0xbf, 0x37, 0xa5, 0x87, 0xbe, 0xfa, 0xb1, 0xab, 0x3f,
  0xfc, 0x2c, 0x45, 0xbf, 0xd0, 0x18, 0xd0, 0xbe, 0x18, 0xd3, 0x30, 0xbe,
  0xbe, 0x4e, 0x2b, 0x3e, 0xcc, 0x68, 0x33, 0xbf, 0xa2, 0x11, 0x7f, 0x3d,
  0x18, 0xfb, 0x88, 0x3e, 0x92, 0x2f, 0xfa, 0x3e, 0xd6, 0xc5, 0xba, 0x3d,
  0xce, 0x63, 0x20, 0xbf, 0xa9, 0x32, 0x39, 0x3e, 0xc0, 0x53, 0xc2, 0x3e,
  0x0e, 0xbb, 0x79, 0xbf, 0x35, 0xa4, 0x84, 0x3f, 0xa3, 0xf5, 0xca, 0x3e,
  0x23, 0x6a, 0x56, 0xbf, 0x61, 0xd3, 0x7b, 0xbf, 0x8e, 0xbf, 0x3a, 0xbe,
  0x65, 0xbe, 0x6b, 0xbf, 0xf7, 0x6b, 0x26, 0x3e, 0x83, 0x18, 0x44, 0x3e,
  0x23, 0xa9, 0x43, 0xbe, 0xd8, 0x8a, 0xfd, 0x3d, 0x8d, 0xbf, 0x81, 0x3d,
  0x9b, 0x9e, 0xa6, 0x3b, 0xf7, 0x15, 0x9c, 0xbe, 0x66, 0x6c, 0x66, 0x3e,
  0xd1, 0xad, 0x60, 0x3e, 0x55, 0x73, 0x4f, 0x3e, 0xac, 0x1d, 0x71, 0xbe,
  0x9c, 0x3d, 0x5a, 0x3e, 0x21, 0x64, 0x1b, 0x3e, 0x0e, 0xc2, 0x1d, 0xbd,
  0x78, 0xa9, 0x4b, 0x3e, 0x21, 0xd9, 0x3e, 0xbe, 0x78, 0x58, 0x2c, 0xbe,
  0x36, 0x92, 0x73, 0xbe, 0x78, 0x55, 0xd3, 0xbb, 0xd9, 0x1b, 0x56, 0xbe,
  0x4a, 0x7b, 0xe9, 0xbd, 0xe1, 0xe0, 0x5c, 0x3e, 0xcb, 0x2a, 0x83, 0x3c,
  0xc0, 0xd0, 0x98, 0xbe, 0x45, 0xf1, 0x4e, 0x3d, 0xcb, 0x08, 0x4b, 0xbe,
  0xec, 0x9d, 0x63, 0x3e, 0xf8, 0xc7, 0x17, 0xbe, 0x8d, 0xd4, 0x11, 0x3e,
  0x61, 0xfe, 0x8d, 0x3e, 0xc5, 0x1e, 0xac, 0x3d, 0x60, 0x74, 0x5e, 0xbe,
  0x5c, 0x39, 0x40, 0x3e, 0xb1, 0xe9, 0xfb, 0xbe, 0xc5, 0x3e, 0x8b, 0x3e,
  0x00, 0xe0, 0x39, 0xbe, 0x94, 0x58, 0x0e, 0xbd, 0x09, 0xd7, 0x16, 0xbf,
  0x0f, 0x09, 0x5f, 0xbe, 0xaf, 0x52, 0x8e, 0xbd, 0xad, 0xf9, 0x8d, 0xbd,
  0x83, 0xd8, 0x0d, 0xbe, 0xa5, 0xc3, 0x2c, 0x3e, 0x50, 0x20, 0xb7, 0x3c,
  0xfb, 0x4d, 0xb7, 0x3e, 0x97, 0x8c, 0xb1, 0x3e, 0x3c, 0xca, 0x40, 0x3e,
  0x9d, 0x72, 0x67, 0x3b, 0xe7, 0x60, 0x04, 0x3e, 0x03, 0xd5, 0x54, 0xbe,
  0x44, 0x92, 0x76, 0x3e, 0x1c, 0xa5, 0x98, 0x3e, 0x9c, 0x79, 0xac, 0xbd,
  0x6f, 0x82, 0xb0, 0xbe, 0x1b, 0xfe, 0xcc, 0x3d, 0x23, 0xe9, 0x07, 0xbe,
  0xd9, 0xa8, 0x97, 0xbd, 0xc1, 0x8c, 0x40, 0x3e, 0x03, 0x77, 0xe3, 0xbe,
  0x0e, 0x7c, 0xcb, 0x3d, 0x09, 0x24, 0xa2, 0x3d, 0xaf, 0x00, 0x9b, 0xbe,
  0x76, 0x7c, 0x8f, 0xbe, 0xa4, 0xe1, 0xd9, 0xbd, 0x61, 0xa6, 0x86, 0x3e,
  0x93, 0x4c, 0x75, 0x3e, 0x66, 0x81, 0xe9, 0x3c, 0x1e, 0x15, 0x7d, 0xbe,
  0xa4, 0x9b, 0x8a, 0xbe, 0x67, 0x0d, 0x68, 0x3e, 0x7a, 0x80, 0x42, 0x3e,
  0xee, 0xa0, 0xa6, 0xbe, 0x6a, 0x0c, 0x95, 0xbe, 0xb3, 0x01, 0x44, 0x3f,
  0xee, 0xd7, 0x22, 0xbe, 0x44, 0xdd, 0x22, 0xbe, 0xd0, 0xd6, 0xed, 0x3e,
  0xe1, 0x71, 0x36, 0x3f, 0xa3, 0x9b, 0x65, 0x3e, 0xd0, 0x85, 0x37, 0x3f,
  0xc9, 0x8b, 0x7d, 0xbc, 0xd9, 0xff, 0x06, 0x3e, 0xc2, 0x7a, 0x2f, 0xbe,
  0x00, 0x48, 0x43, 0x3e, 0x44, 0xdf, 0x5e, 0xbe, 0x9f, 0x1b, 0x91, 0x3e,
  0x81, 0xf6, 0x76, 0xbe, 0x03, 0xd0, 0x0f, 0xbe, 0x81, 0x2e, 0x7c, 0x3e,
  0x5f, 0x5b, 0x51, 0x3d, 0xf7, 0x73, 0x6e, 0xbd, 0xac, 0x0b, 0x02, 0xbe,
  0x3a, 0x7a, 0x73, 0xbd, 0x6e, 0x10, 0xb4, 0x3d, 0x55, 0xe9, 0x01, 0xbe,
  0xe7, 0x1e, 0xd0, 0xbd, 0x41, 0x66, 0x28, 0xbe, 0xa4, 0x4b, 0xd5, 0xbd,
  0x70, 0x9e, 0xf0, 0x3d, 0x36, 0x69, 0x4b, 0xbe, 0xef, 0x54, 0x28, 0x3c,
  0x31, 0x11, 0x5e, 0x3e, 0x15, 0xdb, 0x81, 0x3e, 0x31, 0xf3, 0x93, 0x3e,
  0x8a, 0xb1, 0xb7, 0x3e, 0xb1, 0x93, 0x6e, 0xbe, 0xda, 0xb1, 0x84, 0xbd,
  0x8a, 0x43, 0x1c, 0x3e, 0x44, 0x9a, 0x61, 0x3e, 0x7b, 0x6f, 0x0c, 0x3d,
  0x6d, 0xd8, 0x1c, 0xbd, 0x27, 0x07, 0x12, 0x40, 0xfd, 0xb5, 0x04, 0x40,
  0x83, 0x52, 0x45, 0xc0, 0x7d, 0x3c, 0x36, 0x40, 0x13, 0x0e, 0x2b, 0x40,
  0xb3, 0x02, 0x2d, 0xc0, 0x14, 0x05, 0x37, 0xc0, 0x99, 0xcc, 0xef, 0xbf,
  0x87, 0x33, 0x3d, 0xc0, 0xc2, 0x20, 0xeb, 0x3f, 0xa8, 0x9e, 0x11, 0xbf,
  0xdf, 0x47, 0xfd, 0xbe, 0xfc, 0x09, 0xdd, 0xbd, 0x0b, 0x97, 0x76, 0x3e,
  0xfe, 0x49, 0x9b, 0xbe, 0x82, 0xc2, 0xad, 0x3e, 0x01, 0xbb, 0x2d, 0x3e,
  0x7f, 0x16, 0xb7, 0x3e, 0xf7, 0x94, 0x92, 0x3d, 0x64, 0x95, 0x8f, 0xbf,
  0xf8, 0x26, 0xce, 0x3f, 0x34, 0xfe, 0x03, 0x40, 0x12, 0x92, 0x80, 0xbe,
  0xa4, 0xd3, 0x1f, 0x3f, 0x9b, 0x54, 0xda, 0x3f, 0xb8, 0x08, 0xa3, 0xbf,
  0xf0, 0x4e, 0x51, 0xbf, 0xd1, 0x5d, 0xcf, 0xbf, 0xf5, 0xf4, 0xc2, 0xbe,
  0xc7, 0x26, 0xd5, 0x3f, 0x9a, 0xb0, 0x8f, 0xbf, 0xaf, 0x51, 0x4c, 0xbf,
  0x9b, 0x48, 0x0e, 0x3d, 0xef, 0xce, 0xf7, 0xbe, 0x30, 0x7a, 0x95, 0xbf,
  0xa5, 0x44, 0xa1, 0x3e, 0x1c, 0x27, 0xb6, 0x3e, 0xd4, 0x10, 0x8d, 0x3f,
  0xf1, 0x6c, 0x03, 0x3d, 0x24, 0x02, 0xb1, 0xbf, 0xd1, 0x4b, 0xf2, 0xbe,
  0xfb, 0x88, 0xbd, 0xbe, 0x66, 0x56, 0x9e, 0x3f, 0x3f, 0x10, 0x8c, 0xbf,
  0x85, 0x0f, 0x28, 0xbf, 0xf8, 0x5f, 0x51, 0x3f, 0xb4, 0xec, 0x8b, 0x3f,
  0x47, 0x79, 0x18, 0x3f, 0x08, 0x0d, 0xaa, 0x3f, 0x73, 0x0b, 0x3c, 0xbf,
  0x48, 0xf7, 0xea, 0x3c, 0x85, 0x42, 0x36, 0x3e, 0x40, 0x06, 0x99, 0xbe,
  0x39, 0xab, 0x65, 0x3e, 0xf1, 0xf1, 0x90, 0x3e, 0xfa, 0xfd, 0x64, 0x3e,
  0x72, 0x0d, 0x22, 0xbd, 0xe4, 0x23, 0x8a, 0xbe, 0x2c, 0xcd, 0x4a, 0x3e,
  0x23, 0x35, 0x25, 0x3e, 0x66, 0x10, 0xfc, 0xbe, 0x4a, 0x9c, 0x1a, 0xbe,
  0x18, 0x87, 0x49, 0xbe, 0xe0, 0xfd, 0x10, 0xbe, 0x61, 0x41, 0xa1, 0xbe,
  0x13, 0xb2, 0x8c, 0x3e, 0xc7, 0x22, 0x0c, 0xbd, 0xd3, 0x8c, 0xf0, 0x3e,
  0x95, 0xe9, 0x21, 0xbe, 0xca, 0xd6, 0x24, 0xbf, 0x7b, 0x01, 0xb9, 0x3d,
  0x8c, 0xcb, 0xfd, 0x3d, 0xac, 0xdb, 0x41, 0xbc, 0x02, 0x00, 0xb7, 0xbd,
  0xf6, 0x84, 0x8a, 0x3e, 0xce, 0x84, 0x93, 0x3e, 0xc4, 0x4f, 0x8c, 0xbd,
  0x9f, 0x22, 0x4f, 0xbe, 0x19, 0x2c, 0x2e, 0x3d, 0xe5, 0x12, 0x9f, 0xbc,
  0xfe, 0xfe, 0xff, 0xff, 0x04, 0x00, 0x00, 0x00, 0x04, 0x00, 0x00, 0x00,
  0xfd, 0xff, 0xff, 0xff, 0x0e, 0xff, 0xff, 0xff, 0x04, 0x00, 0x00, 0x00,
  0x08, 0x00, 0x00, 0x00, 0xff, 0xff, 0xff, 0xff, 0x28, 0x00, 0x00, 0x00,
  0x22, 0xff, 0xff, 0xff, 0x04, 0x00, 0x00, 0x00, 0x40, 0x00, 0x00, 0x00,
  0x46, 0xf6, 0x17, 0x3d, 0xe3, 0xa3, 0xcc, 0xbe, 0x51, 0x28, 0x6f, 0x3e,
  0xde, 0x92, 0xc7, 0x3e, 0x8d, 0x4f, 0x22, 0xbf, 0x98, 0x3e, 0xea, 0x3e,
  0xf8, 0xf0, 0xe5, 0x3d, 0xe8, 0xde, 0x46, 0x3e, 0xc6, 0x92, 0x80, 0xbf,
  0xb2, 0x0a, 0x9c, 0x3e, 0x2d, 0xdc, 0x56, 0xbe, 0xe6, 0x4c, 0xd5, 0xbd,
  0xfd, 0x38, 0x80, 0xbf, 0xe3, 0x0a, 0x1e, 0xbf, 0xfd, 0x2a, 0xc8, 0xbd,
  0xc3, 0xc5, 0xed, 0x3e, 0x6e, 0xff, 0xff, 0xff, 0x04, 0x00, 0x00, 0x00,
  0x04, 0x00, 0x00, 0x00, 0xfb, 0x82, 0x8c, 0xbd, 0x7e, 0xff, 0xff, 0xff,
  0x04, 0x00, 0x00, 0x00, 0x40, 0x00, 0x00, 0x00, 0x59, 0xda, 0xf8, 0x3c,
  0x39, 0x61, 0x4e, 0xbd, 0xd6, 0x99, 0xe8, 0x3c, 0x8d, 0xc6, 0x84, 0x3d,
  0x45, 0xda, 0x5f, 0x3d, 0x9e, 0x54, 0xf8, 0x3c, 0xe4, 0xaf, 0x8a, 0x3c,
  0x5e, 0xc9, 0x91, 0xbd, 0x3d, 0x2c, 0xae, 0x3c, 0x2e, 0x1b, 0x58, 0x3d,
  0xf3, 0x9b, 0xe7, 0x3b, 0x92, 0x98, 0x02, 0xbd, 0x80, 0x4c, 0x85, 0xbd,
  0xed, 0xb6, 0xe4, 0x3b, 0x14, 0xab, 0x13, 0x3e, 0xcf, 0x99, 0xb1, 0x3c,
  0xca, 0xff, 0xff, 0xff, 0x04, 0x00, 0x00, 0x00, 0x28, 0x00, 0x00, 0x00,
  0x8b, 0xbe, 0x8b, 0xbf, 0xd7, 0x07, 0x9c, 0xbf, 0xc3, 0xe0, 0x4c, 0x40,
  0x77, 0x6e, 0x5f, 0xc0, 0x19, 0x9a, 0xc5, 0xbf, 0x01, 0xe2, 0xf0, 0x3f,
  0xb2, 0x1a, 0x0f, 0x40, 0x86, 0x84, 0xb1, 0x3f, 0xf7, 0xd7, 0x21, 0x40,
  0x90, 0x8d, 0x90, 0xbf, 0x00, 0x00, 0x06, 0x00, 0x08, 0x00, 0x04, 0x00,
  0x06, 0x00, 0x00, 0x00, 0x04, 0x00, 0x00, 0x00, 0x28, 0x00, 0x00, 0x00,
  0x18, 0x77, 0xaf, 0x3e, 0x6e, 0x6c, 0xa6, 0x3e, 0x13, 0x8b, 0x5a, 0x3f,
  0xb0, 0xb2, 0x6e, 0xbf, 0xf9, 0x5b, 0x0c, 0xbe, 0x93, 0xaa, 0xd9, 0x3e,
  0x7a, 0x14, 0x11, 0x3f, 0x7a, 0x00, 0xbf, 0xbd, 0xff, 0xf4, 0x29, 0x3f,
  0x20, 0x99, 0x17, 0x3f, 0xf4, 0xf4, 0xff, 0xff, 0xf8, 0xf4, 0xff, 0xff,
  0x0f, 0x00, 0x00, 0x00, 0x4d, 0x4c, 0x49, 0x52, 0x20, 0x43, 0x6f, 0x6e,
  0x76, 0x65, 0x72, 0x74, 0x65, 0x64, 0x2e, 0x00, 0x01, 0x00, 0x00, 0x00,
  0x14, 0x00, 0x00, 0x00, 0x00, 0x00, 0x0e, 0x00, 0x18, 0x00, 0x14, 0x00,
  0x10, 0x00, 0x0c, 0x00, 0x08, 0x00, 0x04, 0x00, 0x0e, 0x00, 0x00, 0x00,
  0x14, 0x00, 0x00, 0x00, 0x1c, 0x00, 0x00, 0x00, 0x28, 0x02, 0x00, 0x00,
  0x2c, 0x02, 0x00, 0x00, 0x30, 0x02, 0x00, 0x00, 0x04, 0x00, 0x00, 0x00,
  0x6d, 0x61, 0x69, 0x6e, 0x00, 0x00, 0x00, 0x00, 0x0a, 0x00, 0x00, 0x00,
  0xe0, 0x01, 0x00, 0x00, 0x80, 0x01, 0x00, 0x00, 0x4c, 0x01, 0x00, 0x00,
  0x18, 0x01, 0x00, 0x00, 0xe0, 0x00, 0x00, 0x00, 0xbc, 0x00, 0x00, 0x00,
  0x84, 0x00, 0x00, 0x00, 0x60, 0x00, 0x00, 0x00, 0x28, 0x00, 0x00, 0x00,
  0x04, 0x00, 0x00, 0x00, 0xde, 0xfe, 0xff, 0xff, 0x0c, 0x00, 0x00, 0x00,
  0x10, 0x00, 0x00, 0x00, 0x02, 0x00, 0x00, 0x00, 0x01, 0x00, 0x00, 0x00,
  0x14, 0x00, 0x00, 0x00, 0x01, 0x00, 0x00, 0x00, 0x13, 0x00, 0x00, 0x00,
  0xd2, 0xfe, 0xff, 0xff, 0x14, 0x00, 0x00, 0x00, 0x00, 0x00, 0x00, 0x08,
  0x10, 0x00, 0x00, 0x00, 0x14, 0x00, 0x00, 0x00, 0x04, 0x00, 0x00, 0x00,
  0xb0, 0xf5, 0xff, 0xff, 0x01, 0x00, 0x00, 0x00, 0x13, 0x00, 0x00, 0x00,
  0x03, 0x00, 0x00, 0x00, 0x12, 0x00, 0x00, 0x00, 0x0a, 0x00, 0x00, 0x00,
  0x04, 0x00, 0x00, 0x00, 0x32, 0xff, 0xff, 0xff, 0x0c, 0x00, 0x00, 0x00,
  0x10, 0x00, 0x00, 0x00, 0x02, 0x00, 0x00, 0x00, 0x01, 0x00, 0x00, 0x00,
  0x12, 0x00, 0x00, 0x00, 0x01, 0x00, 0x00, 0x00, 0x11, 0x00, 0x00, 0x00,
  0x26, 0xff, 0xff, 0xff, 0x14, 0x00, 0x00, 0x00, 0x00, 0x00, 0x00, 0x08,
  0x10, 0x00, 0x00, 0x00, 0x14, 0x00, 0x00, 0x00, 0x04, 0x00, 0x00, 0x00,
  0x04, 0xf6, 0xff, 0xff, 0x01, 0x00, 0x00, 0x00, 0x11, 0x00, 0x00, 0x00,
  0x03, 0x00, 0x00, 0x00, 0x10, 0x00, 0x00, 0x00, 0x09, 0x00, 0x00, 0x00,
  0x05, 0x00, 0x00, 0x00, 0x86, 0xff, 0xff, 0xff, 0x0c, 0x00, 0x00, 0x00,
  0x10, 0x00, 0x00, 0x00, 0x02, 0x00, 0x00, 0x00, 0x01, 0x00, 0x00, 0x00,
  0x10, 0x00, 0x00, 0x00, 0x01, 0x00, 0x00, 0x00, 0x0f, 0x00, 0x00, 0x00,
  0x7a, 0xff, 0xff, 0xff, 0x14, 0x00, 0x00, 0x00, 0x00, 0x00, 0x00, 0x08,
  0x10, 0x00, 0x00, 0x00, 0x14, 0x00, 0x00, 0x00, 0x04, 0x00, 0x00, 0x00,
  0x58, 0xf6, 0xff, 0xff, 0x01, 0x00, 0x00, 0x00, 0x0f, 0x00, 0x00, 0x00,
  0x03, 0x00, 0x00, 0x00, 0x0e, 0x00, 0x00, 0x00, 0x08, 0x00, 0x00, 0x00,
  0x03, 0x00, 0x00, 0x00, 0xda, 0xff, 0xff, 0xff, 0x0c, 0x00, 0x00, 0x00,
  0x10, 0x00, 0x00, 0x00, 0x03, 0x00, 0x00, 0x00, 0x01, 0x00, 0x00, 0x00,
  0x0e, 0x00, 0x00, 0x00, 0x02, 0x00, 0x00, 0x00, 0x0d, 0x00, 0x00, 0x00,
  0x06, 0x00, 0x00, 0x00, 0x00, 0x00, 0x0a, 0x00, 0x10, 0x00, 0x0c, 0x00,
  0x08, 0x00, 0x04, 0x00, 0x0a, 0x00, 0x00, 0x00, 0x0c, 0x00, 0x00, 0x00,
  0x10, 0x00, 0x00, 0x00, 0x02, 0x00, 0x00, 0x00, 0x01, 0x00, 0x00, 0x00,
  0x0d, 0x00, 0x00, 0x00, 0x01, 0x00, 0x00, 0x00, 0x0c, 0x00, 0x00, 0x00,
  0x00, 0x00, 0x0e, 0x00, 0x1a, 0x00, 0x14, 0x00, 0x10, 0x00, 0x0c, 0x00,
  0x0b, 0x00, 0x04, 0x00, 0x0e, 0x00, 0x00, 0x00, 0x20, 0x00, 0x00, 0x00,
  0x00, 0x00, 0x00, 0x01, 0x28, 0x00, 0x00, 0x00, 0x2c, 0x00, 0x00, 0x00,
  0x01, 0x00, 0x00, 0x00, 0x00, 0x00, 0x0a, 0x00, 0x10, 0x00, 0x0f, 0x00,
  0x08, 0x00, 0x04, 0x00, 0x0a, 0x00, 0x00, 0x00, 0x01, 0x00, 0x00, 0x00,
  0x01, 0x00, 0x00, 0x00, 0x00, 0x00, 0x00, 0x01, 0x01, 0x00, 0x00, 0x00,
  0x0c, 0x00, 0x00, 0x00, 0x03, 0x00, 0x00, 0x00, 0x0b, 0x00, 0x00, 0x00,
  0x02, 0x00, 0x00, 0x00, 0x01, 0x00, 0x00, 0x00, 0x00, 0x00, 0x0e, 0x00,
  0x14, 0x00, 0x00, 0x00, 0x10, 0x00, 0x0c, 0x00, 0x0b, 0x00, 0x04, 0x00,
  0x0e, 0x00, 0x00, 0x00, 0x10, 0x00, 0x00, 0x00, 0x00, 0x00, 0x00, 0x34,
  0x0c, 0x00, 0x00, 0x00, 0x10, 0x00, 0x00, 0x00, 0x44, 0xf7, 0xff, 0xff,
  0x01, 0x00, 0x00, 0x00, 0x0b, 0x00, 0x00, 0x00, 0x02, 0x00, 0x00, 0x00,
  0x00, 0x00, 0x00, 0x00, 0x07, 0x00, 0x00, 0x00, 0x01, 0x00, 0x00, 0x00,
  0x14, 0x00, 0x00, 0x00, 0x01, 0x00, 0x00, 0x00, 0x00, 0x00, 0x00, 0x00,
  0x15, 0x00, 0x00, 0x00, 0x64, 0x08, 0x00, 0x00, 0xf4, 0x07, 0x00, 0x00,
  0x88, 0x07, 0x00, 0x00, 0x34, 0x07, 0x00, 0x00, 0xdc, 0x06, 0x00, 0x00,
  0x84, 0x06, 0x00, 0x00, 0x38, 0x06, 0x00, 0x00, 0xcc, 0x05, 0x00, 0x00,
  0x84, 0x05, 0x00, 0x00, 0x38, 0x05, 0x00, 0x00, 0xec, 0x04, 0x00, 0x00,
  0x78, 0x04, 0x00, 0x00, 0xa8, 0x03, 0x00, 0x00, 0xd8, 0x02, 0x00, 0x00,
  0x7c, 0x02, 0x00, 0x00, 0x08, 0x02, 0x00, 0x00, 0xac, 0x01, 0x00, 0x00,
  0x34, 0x01, 0x00, 0x00, 0xd8, 0x00, 0x00, 0x00, 0x60, 0x00, 0x00, 0x00,
  0x04, 0x00, 0x00, 0x00, 0x06, 0xf8, 0xff, 0xff, 0x00, 0x00, 0x00, 0x01,
  0x14, 0x00, 0x00, 0x00, 0x1c, 0x00, 0x00, 0x00, 0x1c, 0x00, 0x00, 0x00,
  0x15, 0x00, 0x00, 0x00, 0x34, 0x00, 0x00, 0x00, 0x02, 0x00, 0x00, 0x00,
  0xff, 0xff, 0xff, 0xff, 0x01, 0x00, 0x00, 0x00, 0xec, 0xf7, 0xff, 0xff,
  0x19, 0x00, 0x00, 0x00, 0x53, 0x74, 0x61, 0x74, 0x65, 0x66, 0x75, 0x6c,
  0x50, 0x61, 0x72, 0x74, 0x69, 0x74, 0x69, 0x6f, 0x6e, 0x65, 0x64, 0x43,
  0x61, 0x6c, 0x6c, 0x3a, 0x30, 0x00, 0x00, 0x00, 0x02, 0x00, 0x00, 0x00,
  0x01, 0x00, 0x00, 0x00, 0x01, 0x00, 0x00, 0x00, 0x5e, 0xf8, 0xff, 0xff,
  0x00, 0x00, 0x00, 0x01, 0x14, 0x00, 0x00, 0x00, 0x1c, 0x00, 0x00, 0x00,
  0x1c, 0x00, 0x00, 0x00, 0x14, 0x00, 0x00, 0x00, 0x50, 0x00, 0x00, 0x00,
  0x02, 0x00, 0x00, 0x00, 0xff, 0xff, 0xff, 0xff, 0x01, 0x00, 0x00, 0x00,
  0x44, 0xf8, 0xff, 0xff, 0x34, 0x00, 0x00, 0x00, 0x73, 0x65, 0x71, 0x75,
  0x65, 0x6e, 0x74, 0x69, 0x61, 0x6c, 0x2f, 0x64, 0x65, 0x6e, 0x73, 0x65,
  0x5f, 0x32, 0x2f, 0x4d, 0x61, 0x74, 0x4d, 0x75, 0x6c, 0x3b, 0x73, 0x65,
  0x71, 0x75, 0x65, 0x6e, 0x74, 0x69, 0x61, 0x6c, 0x2f, 0x64, 0x65, 0x6e,
  0x73, 0x65, 0x5f, 0x32, 0x2f, 0x42, 0x69, 0x61, 0x73, 0x41, 0x64, 0x64,
  0x00, 0x00, 0x00, 0x00, 0x02, 0x00, 0x00, 0x00, 0x01, 0x00, 0x00, 0x00,
  0x01, 0x00, 0x00, 0x00, 0xd2, 0xf8, 0xff, 0xff, 0x00, 0x00, 0x00, 0x01,
  0x14, 0x00, 0x00, 0x00, 0x1c, 0x00, 0x00, 0x00, 0x1c, 0x00, 0x00, 0x00,
  0x13, 0x00, 0x00, 0x00, 0x34, 0x00, 0x00, 0x00, 0x02, 0x00, 0x00, 0x00,
  0xff, 0xff, 0xff, 0xff, 0x10, 0x00, 0x00, 0x00, 0xb8, 0xf8, 0xff, 0xff,
  0x1a, 0x00, 0x00, 0x00, 0x73, 0x65, 0x71, 0x75, 0x65, 0x6e, 0x74, 0x69,
  0x61, 0x6c, 0x2f, 0x64, 0x65, 0x6e, 0x73, 0x65, 0x5f, 0x31, 0x2f, 0x53,
  0x69, 0x67, 0x6d, 0x6f, 0x69, 0x64, 0x00, 0x00, 0x02, 0x00, 0x00, 0x00,
  0x01, 0x00, 0x00, 0x00, 0x10, 0x00, 0x00, 0x00, 0x2a, 0xf9, 0xff, 0xff,
  0x00, 0x00, 0x00, 0x01, 0x14, 0x00, 0x00, 0x00, 0x1c, 0x00, 0x00, 0x00,
  0x1c, 0x00, 0x00, 0x00, 0x12, 0x00, 0x00, 0x00, 0x50, 0x00, 0x00, 0x00,
  0x02, 0x00, 0x00, 0x00, 0xff, 0xff, 0xff, 0xff, 0x10, 0x00, 0x00, 0x00,
  0x10, 0xf9, 0xff, 0xff, 0x34, 0x00, 0x00, 0x00, 0x73, 0x65, 0x71, 0x75,
  0x65, 0x6e, 0x74, 0x69, 0x61, 0x6c, 0x2f, 0x64, 0x65, 0x6e, 0x73, 0x65,
  0x5f, 0x31, 0x2f, 0x4d, 0x61, 0x74, 0x4d, 0x75, 0x6c, 0x3b, 0x73, 0x65,
  0x71, 0x75, 0x65, 0x6e, 0x74, 0x69, 0x61, 0x6c, 0x2f, 0x64, 0x65, 0x6e,
  0x73, 0x65, 0x5f, 0x31, 0x2f, 0x42, 0x69, 0x61, 0x73, 0x41, 0x64, 0x64,
  0x00, 0x00, 0x00, 0x00, 0x02, 0x00, 0x00, 0x00, 0x01, 0x00, 0x00, 0x00,
  0x10, 0x00, 0x00, 0x00, 0x9e, 0xf9, 0xff, 0xff, 0x00, 0x00, 0x00, 0x01,
  0x14, 0x00, 0x00, 0x00, 0x1c, 0x00, 0x00, 0x00, 0x1c, 0x00, 0x00, 0x00,
  0x11, 0x00, 0x00, 0x00, 0x34, 0x00, 0x00, 0x00, 0x02, 0x00, 0x00, 0x00,
  0xff, 0xff, 0xff, 0xff, 0x10, 0x00, 0x00, 0x00, 0x84, 0xf9, 0xff, 0xff,
  0x18, 0x00, 0x00, 0x00, 0x73, 0x65, 0x71, 0x75, 0x65, 0x6e, 0x74, 0x69,
  0x61, 0x6c, 0x2f, 0x64, 0x65, 0x6e, 0x73, 0x65, 0x2f, 0x53, 0x69, 0x67,
  0x6d, 0x6f, 0x69, 0x64, 0x00, 0x00, 0x00, 0x00, 0x02, 0x00, 0x00, 0x00,
  0x01, 0x00, 0x00, 0x00, 0x10, 0x00, 0x00, 0x00, 0xf6, 0xf9, 0xff, 0xff,
  0x00, 0x00, 0x00, 0x01, 0x14, 0x00, 0x00, 0x00, 0x1c, 0x00, 0x00, 0x00,
  0x1c, 0x00, 0x00, 0x00, 0x10, 0x00, 0x00, 0x00, 0x4c, 0x00, 0x00, 0x00,
  0x02, 0x00, 0x00, 0x00, 0xff, 0xff, 0xff, 0xff, 0x10, 0x00, 0x00, 0x00,
  0xdc, 0xf9, 0xff, 0xff, 0x30, 0x00, 0x00, 0x00, 0x73, 0x65, 0x71, 0x75,
  0x65, 0x6e, 0x74, 0x69, 0x61, 0x6c, 0x2f, 0x64, 0x65, 0x6e, 0x73, 0x65,
  0x2f, 0x4d, 0x61, 0x74, 0x4d, 0x75, 0x6c, 0x3b, 0x73, 0x65, 0x71, 0x75,
  0x65, 0x6e, 0x74, 0x69, 0x61, 0x6c, 0x2f, 0x64, 0x65, 0x6e, 0x73, 0x65,
  0x2f, 0x42, 0x69, 0x61, 0x73, 0x41, 0x64, 0x64, 0x00, 0x00, 0x00, 0x00,
  0x02, 0x00, 0x00, 0x00, 0x01, 0x00, 0x00, 0x00, 0x10, 0x00, 0x00, 0x00,
  0x66, 0xfa, 0xff, 0xff, 0x00, 0x00, 0x00, 0x01, 0x14, 0x00, 0x00, 0x00,
  0x1c, 0x00, 0x00, 0x00, 0x1c, 0x00, 0x00, 0x00, 0x0f, 0x00, 0x00, 0x00,
  0x34, 0x00, 0x00, 0x00, 0x02, 0x00, 0x00, 0x00, 0xff, 0xff, 0xff, 0xff,
  0x28, 0x00, 0x00, 0x00, 0x4c, 0xfa, 0xff, 0xff, 0x1a, 0x00, 0x00, 0x00,
  0x73, 0x65, 0x71, 0x75, 0x65, 0x6e, 0x74, 0x69, 0x61, 0x6c, 0x2f, 0x66,
  0x6c, 0x61, 0x74, 0x74, 0x65, 0x6e, 0x2f, 0x52, 0x65, 0x73, 0x68, 0x61,
  0x70, 0x65, 0x00, 0x00, 0x02, 0x00, 0x00, 0x00, 0x01, 0x00, 0x00, 0x00,
  0x28, 0x00, 0x00, 0x00, 0xbe, 0xfa, 0xff, 0xff, 0x00, 0x00, 0x00, 0x01,
  0x14, 0x00, 0x00, 0x00, 0x24, 0x00, 0x00, 0x00, 0x24, 0x00, 0x00, 0x00,
  0x0e, 0x00, 0x00, 0x00, 0xa0, 0x00, 0x00, 0x00, 0x04, 0x00, 0x00, 0x00,
  0xff, 0xff, 0xff, 0xff, 0x01, 0x00, 0x00, 0x00, 0x04, 0x00, 0x00, 0x00,
  0x0a, 0x00, 0x00, 0x00, 0xac, 0xfa, 0xff, 0xff, 0x7d, 0x00, 0x00, 0x00,
  0x73, 0x65, 0x71, 0x75, 0x65, 0x6e, 0x74, 0x69, 0x61, 0x6c, 0x2f, 0x63,
  0x6f, 0x6e, 0x76, 0x31, 0x64, 0x2f, 0x53, 0x69, 0x67, 0x6d, 0x6f, 0x69,
  0x64, 0x3b, 0x73, 0x65, 0x71, 0x75, 0x65, 0x6e, 0x74, 0x69, 0x61, 0x6c,
  0x2f, 0x63, 0x6f, 0x6e, 0x76, 0x31, 0x64, 0x2f, 0x42, 0x69, 0x61, 0x73,
  0x41, 0x64, 0x64, 0x3b, 0x73, 0x65, 0x71, 0x75, 0x65, 0x6e, 0x74, 0x69,
  0x61, 0x6c, 0x2f, 0x63, 0x6f, 0x6e, 0x76, 0x31, 0x64, 0x2f, 0x43, 0x6f,
  0x6e, 0x76, 0x31, 0x44, 0x2f, 0x53, 0x71, 0x75, 0x65, 0x65, 0x7a, 0x65,
  0x3b, 0x73, 0x65, 0x71, 0x75, 0x65, 0x6e, 0x74, 0x69, 0x61, 0x6c, 0x2f,
  0x63, 0x6f, 0x6e, 0x76, 0x31, 0x64, 0x2f, 0x42, 0x69, 0x61, 0x73, 0x41,
  0x64, 0x64, 0x2f, 0x52, 0x65, 0x61, 0x64, 0x56, 0x61, 0x72, 0x69, 0x61,
  0x62, 0x6c, 0x65, 0x4f, 0x70, 0x00, 0x00, 0x00, 0x04, 0x00, 0x00, 0x00,
  0x01, 0x00, 0x00, 0x00, 0x01, 0x00, 0x00, 0x00, 0x04, 0x00, 0x00, 0x00,
  0x0a, 0x00, 0x00, 0x00, 0x8a, 0xfb, 0xff, 0xff, 0x00, 0x00, 0x00, 0x01,
  0x14, 0x00, 0x00, 0x00, 0x24, 0x00, 0x00, 0x00, 0x24, 0x00, 0x00, 0x00,
  0x0d, 0x00, 0x00, 0x00, 0xa0, 0x00, 0x00, 0x00, 0x04, 0x00, 0x00, 0x00,
  0xff, 0xff, 0xff, 0xff, 0x01, 0x00, 0x00, 0x00, 0x04, 0x00, 0x00, 0x00,
  0x0a, 0x00, 0x00, 0x00, 0x78, 0xfb, 0xff, 0xff, 0x7c, 0x00, 0x00, 0x00,
  0x73, 0x65, 0x71, 0x75, 0x65, 0x6e, 0x74, 0x69, 0x61, 0x6c, 0x2f, 0x63,
  0x6f, 0x6e, 0x76, 0x31, 0x64, 0x2f, 0x42, 0x69, 0x61, 0x73, 0x41, 0x64,
  0x64, 0x3b, 0x73, 0x65, 0x71, 0x75, 0x65, 0x6e, 0x74, 0x69, 0x61, 0x6c,
  0x2f, 0x63, 0x6f, 0x6e, 0x76, 0x31, 0x64, 0x2f, 0x43, 0x6f, 0x6e, 0x76,
  0x31, 0x44, 0x2f, 0x53, 0x71, 0x75, 0x65, 0x65, 0x7a, 0x65, 0x3b, 0x73,
  0x65, 0x71, 0x75, 0x65, 0x6e, 0x74, 0x69, 0x61, 0x6c, 0x2f, 0x63, 0x6f,
  0x6e, 0x76, 0x31, 0x64, 0x2f, 0x42, 0x69, 0x61, 0x73, 0x41, 0x64, 0x64,
  0x2f, 0x52, 0x65, 0x61, 0x64, 0x56, 0x61, 0x72, 0x69, 0x61, 0x62, 0x6c,
  0x65, 0x4f, 0x70, 0x3b, 0x73, 0x65, 0x71, 0x75, 0x65, 0x6e, 0x74, 0x69,
  0x61, 0x6c, 0x2f, 0x63, 0x6f, 0x6e, 0x76, 0x31, 0x64, 0x2f, 0x43, 0x6f,
  0x6e, 0x76, 0x31, 0x44, 0x00, 0x00, 0x00, 0x00, 0x04, 0x00, 0x00, 0x00,
  0x01, 0x00, 0x00, 0x00, 0x01, 0x00, 0x00, 0x00, 0x04, 0x00, 0x00, 0x00,
  0x0a, 0x00, 0x00, 0x00, 0x56, 0xfc, 0xff, 0xff, 0x00, 0x00, 0x00, 0x01,
  0x14, 0x00, 0x00, 0x00, 0x24, 0x00, 0x00, 0x00, 0x24, 0x00, 0x00, 0x00,
  0x0c, 0x00, 0x00, 0x00, 0x44, 0x00, 0x00, 0x00, 0x04, 0x00, 0x00, 0x00,
  0xff, 0xff, 0xff, 0xff, 0x01, 0x00, 0x00, 0x00, 0x04, 0x00, 0x00, 0x00,
  0x01, 0x00, 0x00, 0x00, 0x44, 0xfc, 0xff, 0xff, 0x23, 0x00, 0x00, 0x00,
  0x73, 0x65, 0x71, 0x75, 0x65, 0x6e, 0x74, 0x69, 0x61, 0x6c, 0x2f, 0x63,
  0x6f, 0x6e, 0x76, 0x31, 0x64, 0x2f, 0x43, 0x6f, 0x6e, 0x76, 0x31, 0x44,
  0x2f, 0x45, 0x78, 0x70, 0x61, 0x6e, 0x64, 0x44, 0x69, 0x6d, 0x73, 0x00,
  0x04, 0x00, 0x00, 0x00, 0x01, 0x00, 0x00, 0x00, 0x01, 0x00, 0x00, 0x00,
  0x04, 0x00, 0x00, 0x00, 0x01, 0x00, 0x00, 0x00, 0x32, 0xfd, 0xff, 0xff,
  0x00, 0x00, 0x00, 0x01, 0x10, 0x00, 0x00, 0x00, 0x10, 0x00, 0x00, 0x00,
  0x0b, 0x00, 0x00, 0x00, 0x28, 0x00, 0x00, 0x00, 0x9c, 0xfc, 0xff, 0xff,
  0x19, 0x00, 0x00, 0x00, 0x73, 0x65, 0x71, 0x75, 0x65, 0x6e, 0x74, 0x69,
  0x61, 0x6c, 0x2f, 0x64, 0x65, 0x6e, 0x73, 0x65, 0x5f, 0x32, 0x2f, 0x4d,
  0x61, 0x74, 0x4d, 0x75, 0x6c, 0x00, 0x00, 0x00, 0x02, 0x00, 0x00, 0x00,
  0x01, 0x00, 0x00, 0x00, 0x10, 0x00, 0x00, 0x00, 0x7a, 0xfd, 0xff, 0xff,
  0x00, 0x00, 0x00, 0x01, 0x10, 0x00, 0x00, 0x00, 0x10, 0x00, 0x00, 0x00,
  0x0a, 0x00, 0x00, 0x00, 0x28, 0x00, 0x00, 0x00, 0xe4, 0xfc, 0xff, 0xff,
  0x19, 0x00, 0x00, 0x00, 0x73, 0x65, 0x71, 0x75, 0x65, 0x6e, 0x74, 0x69,
  0x61, 0x6c, 0x2f, 0x64, 0x65, 0x6e, 0x73, 0x65, 0x5f, 0x31, 0x2f, 0x4d,
  0x61, 0x74, 0x4d, 0x75, 0x6c, 0x00, 0x00, 0x00, 0x02, 0x00, 0x00, 0x00,
  0x10, 0x00, 0x00, 0x00, 0x10, 0x00, 0x00, 0x00, 0xc2, 0xfd, 0xff, 0xff,
  0x00, 0x00, 0x00, 0x01, 0x10, 0x00, 0x00, 0x00, 0x10, 0x00, 0x00, 0x00,
  0x09, 0x00, 0x00, 0x00, 0x24, 0x00, 0x00, 0x00, 0x2c, 0xfd, 0xff, 0xff,
  0x17, 0x00, 0x00, 0x00, 0x73, 0x65, 0x71, 0x75, 0x65, 0x6e, 0x74, 0x69,
  0x61, 0x6c, 0x2f, 0x64, 0x65, 0x6e, 0x73, 0x65, 0x2f, 0x4d, 0x61, 0x74,
  0x4d, 0x75, 0x6c, 0x00, 0x02, 0x00, 0x00, 0x00, 0x10, 0x00, 0x00, 0x00,
  0x28, 0x00, 0x00, 0x00, 0xae, 0xff, 0xff, 0xff, 0x00, 0x00, 0x00, 0x01,
  0x14, 0x00, 0x00, 0x00, 0x14, 0x00, 0x00, 0x00, 0x08, 0x00, 0x00, 0x00,
  0x00, 0x00, 0x00, 0x02, 0x34, 0x00, 0x00, 0x00, 0x74, 0xfd, 0xff, 0xff,
  0x27, 0x00, 0x00, 0x00, 0x73, 0x65, 0x71, 0x75, 0x65, 0x6e, 0x74, 0x69,
  0x61, 0x6c, 0x2f, 0x63, 0x6f, 0x6e, 0x76, 0x31, 0x64, 0x2f, 0x43, 0x6f,
  0x6e, 0x76, 0x31, 0x44, 0x2f, 0x45, 0x78, 0x70, 0x61, 0x6e, 0x64, 0x44,
  0x69, 0x6d, 0x73, 0x2f, 0x64, 0x69, 0x6d, 0x00, 0x00, 0x00, 0x00, 0x00,
  0x00, 0x00, 0x16, 0x00, 0x1c, 0x00, 0x18, 0x00, 0x17, 0x00, 0x10, 0x00,
  0x0c, 0x00, 0x08, 0x00, 0x00, 0x00, 0x00, 0x00, 0x00, 0x00, 0x07, 0x00,
  0x16, 0x00, 0x00, 0x00, 0x00, 0x00, 0x00, 0x01, 0x14, 0x00, 0x00, 0x00,
  0x14, 0x00, 0x00, 0x00, 0x07, 0x00, 0x00, 0x00, 0x00, 0x00, 0x00, 0x02,
  0x28, 0x00, 0x00, 0x00, 0xdc, 0xfd, 0xff, 0xff, 0x18, 0x00, 0x00, 0x00,
  0x73, 0x65, 0x71, 0x75, 0x65, 0x6e, 0x74, 0x69, 0x61, 0x6c, 0x2f, 0x66,
  0x6c, 0x61, 0x74, 0x74, 0x65, 0x6e, 0x2f, 0x43, 0x6f, 0x6e, 0x73, 0x74,
  0x00, 0x00, 0x00, 0x00, 0x01, 0x00, 0x00, 0x00, 0x02, 0x00, 0x00, 0x00,
  0xb6, 0xfe, 0xff, 0xff, 0x00, 0x00, 0x00, 0x01, 0x10, 0x00, 0x00, 0x00,
  0x10, 0x00, 0x00, 0x00, 0x06, 0x00, 0x00, 0x00, 0x38, 0x00, 0x00, 0x00,
  0x20, 0xfe, 0xff, 0xff, 0x29, 0x00, 0x00, 0x00, 0x73, 0x65, 0x71, 0x75,
  0x65, 0x6e, 0x74, 0x69, 0x61, 0x6c, 0x2f, 0x64, 0x65, 0x6e, 0x73, 0x65,
  0x5f, 0x31, 0x2f, 0x42, 0x69, 0x61, 0x73, 0x41, 0x64, 0x64, 0x2f, 0x52,
  0x65, 0x61, 0x64, 0x56, 0x61, 0x72, 0x69, 0x61, 0x62, 0x6c, 0x65, 0x4f,
  0x70, 0x00, 0x00, 0x00, 0x01, 0x00, 0x00, 0x00, 0x10, 0x00, 0x00, 0x00,
  0x0a, 0xff, 0xff, 0xff, 0x00, 0x00, 0x00, 0x01, 0x10, 0x00, 0x00, 0x00,
  0x10, 0x00, 0x00, 0x00, 0x05, 0x00, 0x00, 0x00, 0x38, 0x00, 0x00, 0x00,
  0x74, 0xfe, 0xff, 0xff, 0x29, 0x00, 0x00, 0x00, 0x73, 0x65, 0x71, 0x75,
  0x65, 0x6e, 0x74, 0x69, 0x61, 0x6c, 0x2f, 0x64, 0x65, 0x6e, 0x73, 0x65,
  0x5f, 0x32, 0x2f, 0x42, 0x69, 0x61, 0x73, 0x41, 0x64, 0x64, 0x2f, 0x52,
  0x65, 0x61, 0x64, 0x56, 0x61, 0x72, 0x69, 0x61, 0x62, 0x6c, 0x65, 0x4f,
  0x70, 0x00, 0x00, 0x00, 0x01, 0x00, 0x00, 0x00, 0x01, 0x00, 0x00, 0x00,
  0x5e, 0xff, 0xff, 0xff, 0x00, 0x00, 0x00, 0x01, 0x10, 0x00, 0x00, 0x00,
  0x10, 0x00, 0x00, 0x00, 0x04, 0x00, 0x00, 0x00, 0x34, 0x00, 0x00, 0x00,
  0xc8, 0xfe, 0xff, 0xff, 0x27, 0x00, 0x00, 0x00, 0x73, 0x65, 0x71, 0x75,
  0x65, 0x6e, 0x74, 0x69, 0x61, 0x6c, 0x2f, 0x64, 0x65, 0x6e, 0x73, 0x65,
  0x2f, 0x42, 0x69, 0x61, 0x73, 0x41, 0x64, 0x64, 0x2f, 0x52, 0x65, 0x61,
  0x64, 0x56, 0x61, 0x72, 0x69, 0x61, 0x62, 0x6c, 0x65, 0x4f, 0x70, 0x00,
  0x01, 0x00, 0x00, 0x00, 0x10, 0x00, 0x00, 0x00, 0xae, 0xff, 0xff, 0xff,
  0x00, 0x00, 0x00, 0x01, 0x10, 0x00, 0x00, 0x00, 0x10, 0x00, 0x00, 0x00,
  0x03, 0x00, 0x00, 0x00, 0x28, 0x00, 0x00, 0x00, 0x18, 0xff, 0xff, 0xff,
  0x18, 0x00, 0x00, 0x00, 0x73, 0x65, 0x71, 0x75, 0x65, 0x6e, 0x74, 0x69,
  0x61, 0x6c, 0x2f, 0x63, 0x6f, 0x6e, 0x76, 0x31, 0x64, 0x2f, 0x43, 0x6f,
  0x6e, 0x76, 0x31, 0x44, 0x00, 0x00, 0x00, 0x00, 0x04, 0x00, 0x00, 0x00,
  0x0a, 0x00, 0x00, 0x00, 0x01, 0x00, 0x00, 0x00, 0x01, 0x00, 0x00, 0x00,
  0x01, 0x00, 0x00, 0x00, 0x00, 0x00, 0x16, 0x00, 0x18, 0x00, 0x14, 0x00,
  0x00, 0x00, 0x10, 0x00, 0x0c, 0x00, 0x08, 0x00, 0x00, 0x00, 0x00, 0x00,
  0x00, 0x00, 0x07, 0x00, 0x16, 0x00, 0x00, 0x00, 0x00, 0x00, 0x00, 0x01,
  0x10, 0x00, 0x00, 0x00, 0x10, 0x00, 0x00, 0x00, 0x02, 0x00, 0x00, 0x00,
  0x38, 0x00, 0x00, 0x00, 0x80, 0xff, 0xff, 0xff, 0x28, 0x00, 0x00, 0x00,
  0x73, 0x65, 0x71, 0x75, 0x65, 0x6e, 0x74, 0x69, 0x61, 0x6c, 0x2f, 0x63,
  0x6f, 0x6e, 0x76, 0x31, 0x64, 0x2f, 0x42, 0x69, 0x61, 0x73, 0x41, 0x64,
  0x64, 0x2f, 0x52, 0x65, 0x61, 0x64, 0x56, 0x61, 0x72, 0x69, 0x61, 0x62,
  0x6c, 0x65, 0x4f, 0x70, 0x00, 0x00, 0x00, 0x00, 0x01, 0x00, 0x00, 0x00,
  0x0a, 0x00, 0x00, 0x00, 0x00, 0x00, 0x16, 0x00, 0x1c, 0x00, 0x18, 0x00,
  0x00, 0x00, 0x14, 0x00, 0x10, 0x00, 0x0c, 0x00, 0x00, 0x00, 0x00, 0x00,
  0x08, 0x00, 0x07, 0x00, 0x16, 0x00, 0x00, 0x00, 0x00, 0x00, 0x00, 0x01,
  0x14, 0x00, 0x00, 0x00, 0x24, 0x00, 0x00, 0x00, 0x24, 0x00, 0x00, 0x00,
  0x01, 0x00, 0x00, 0x00, 0x40, 0x00, 0x00, 0x00, 0x03, 0x00, 0x00, 0x00,
  0xff, 0xff, 0xff, 0xff, 0x04, 0x00, 0x00, 0x00, 0x01, 0x00, 0x00, 0x00,
  0x04, 0x00, 0x04, 0x00, 0x04, 0x00, 0x00, 0x00, 0x1e, 0x00, 0x00, 0x00,
  0x73, 0x65, 0x72, 0x76, 0x69, 0x6e, 0x67, 0x5f, 0x64, 0x65, 0x66, 0x61,
  0x75, 0x6c, 0x74, 0x5f, 0x63, 0x6f, 0x6e, 0x76, 0x31, 0x64, 0x5f, 0x69,
  0x6e, 0x70, 0x75, 0x74, 0x3a, 0x30, 0x00, 0x00, 0x03, 0x00, 0x00, 0x00,
  0x01, 0x00, 0x00, 0x00, 0x04, 0x00, 0x00, 0x00, 0x01, 0x00, 0x00, 0x00,
  0x05, 0x00, 0x00, 0x00, 0x50, 0x00, 0x00, 0x00, 0x34, 0x00, 0x00, 0x00,
  0x24, 0x00, 0x00, 0x00, 0x14, 0x00, 0x00, 0x00, 0x04, 0x00, 0x00, 0x00,
  0xd0, 0xff, 0xff, 0xff, 0x09, 0x00, 0x00, 0x00, 0x00, 0x00, 0x00, 0x09,
  0xdc, 0xff, 0xff, 0xff, 0x16, 0x00, 0x00, 0x00, 0x00, 0x00, 0x00, 0x16,
  0xe8, 0xff, 0xff, 0xff, 0x0e, 0x00, 0x00, 0x00, 0x00, 0x00, 0x00, 0x0e,
  0xf4, 0xff, 0xff, 0xff, 0x03, 0x00, 0x00, 0x00, 0x00, 0x00, 0x00, 0x03,
  0x0c, 0x00, 0x0c, 0x00, 0x0b, 0x00, 0x00, 0x00, 0x00, 0x00, 0x04, 0x00,
  0x0c, 0x00, 0x00, 0x00, 0x46, 0x00, 0x00, 0x00, 0x00, 0x00, 0x00, 0x46
 
};

#endif //MODELAPNEADETECT_H